const unsigned char model_tflite[] = {
  0x1c, 0x00, 0x00, 0x00, 0x54, 0x46, 0x4c, 0x33, 0x14, 0x00, 0x20, 0x00,
  0x1c, 0x00, 0x18, 0x00, 0x14, 0x00, 0x10, 0x00, 0x0c, 0x00, 0x00, 0x00,
  0x08, 0x00, 0x04, 0x00, 0x14, 0x00, 0x00, 0x00, 0x1c, 0x00, 0x00, 0x00,
  0x98, 0x00, 0x00, 0x00, 0xf0, 0x00, 0x00, 0x00, 0x98, 0x0f, 0x00, 0x00,
  0xa8, 0x0f, 0x00, 0x00, 0x84, 0x19, 0x00, 0x00, 0x03, 0x00, 0x00, 0x00,
  0x01, 0x00, 0x00, 0x00, 0x10, 0x00, 0x00, 0x00, 0x00, 0x00, 0x0a, 0x00,
  0x10, 0x00, 0x0c, 0x00, 0x08, 0x00, 0x04, 0x00, 0x0a, 0x00, 0x00, 0x00,
  0x0c, 0x00, 0x00, 0x00, 0x1c, 0x00, 0x00, 0x00, 0x3c, 0x00, 0x00, 0x00,
  0x0f, 0x00, 0x00, 0x00, 0x73, 0x65, 0x72, 0x76, 0x69, 0x6e, 0x67, 0x5f,
  0x64, 0x65, 0x66, 0x61, 0x75, 0x6c, 0x74, 0x00, 0x01, 0x00, 0x00, 0x00,
  0x04, 0x00, 0x00, 0x00, 0x90, 0xff, 0xff, 0xff, 0x0a, 0x00, 0x00, 0x00,
  0x04, 0x00, 0x00, 0x00, 0x08, 0x00, 0x00, 0x00, 0x6f, 0x75, 0x74, 0x70,
  0x75, 0x74, 0x5f, 0x30, 0x00, 0x00, 0x00, 0x00, 0x01, 0x00, 0x00, 0x00,
  0x04, 0x00, 0x00, 0x00, 0x4e, 0xf0, 0xff, 0xff, 0x04, 0x00, 0x00, 0x00,
  0x0f, 0x00, 0x00, 0x00, 0x6b, 0x65, 0x72, 0x61, 0x73, 0x5f, 0x74, 0x65,
  0x6e, 0x73, 0x6f, 0x72, 0x5f, 0x31, 0x31, 0x00, 0x02, 0x00, 0x00, 0x00,
  0x34, 0x00, 0x00, 0x00, 0x04, 0x00, 0x00, 0x00, 0xdc, 0xff, 0xff, 0xff,
  0x0d, 0x00, 0x00, 0x00, 0x04, 0x00, 0x00, 0x00, 0x13, 0x00, 0x00, 0x00,
  0x43, 0x4f, 0x4e, 0x56, 0x45, 0x52, 0x53, 0x49, 0x4f, 0x4e, 0x5f, 0x4d,
  0x45, 0x54, 0x41, 0x44, 0x41, 0x54, 0x41, 0x00, 0x08, 0x00, 0x0c, 0x00,
  0x08, 0x00, 0x04, 0x00, 0x08, 0x00, 0x00, 0x00, 0x0c, 0x00, 0x00, 0x00,
  0x04, 0x00, 0x00, 0x00, 0x13, 0x00, 0x00, 0x00, 0x6d, 0x69, 0x6e, 0x5f,
  0x72, 0x75, 0x6e, 0x74, 0x69, 0x6d, 0x65, 0x5f, 0x76, 0x65, 0x72, 0x73,
  0x69, 0x6f, 0x6e, 0x00, 0x0e, 0x00, 0x00, 0x00, 0xa4, 0x0e, 0x00, 0x00,
  0x9c, 0x0e, 0x00, 0x00, 0x0c, 0x0d, 0x00, 0x00, 0x7c, 0x0c, 0x00, 0x00,
  0xa4, 0x0b, 0x00, 0x00, 0x14, 0x0b, 0x00, 0x00, 0xc4, 0x04, 0x00, 0x00,
  0xb4, 0x00, 0x00, 0x00, 0xac, 0x00, 0x00, 0x00, 0xa4, 0x00, 0x00, 0x00,
  0x9c, 0x00, 0x00, 0x00, 0x94, 0x00, 0x00, 0x00, 0x74, 0x00, 0x00, 0x00,
  0x04, 0x00, 0x00, 0x00, 0x02, 0xf1, 0xff, 0xff, 0x04, 0x00, 0x00, 0x00,
  0x60, 0x00, 0x00, 0x00, 0x0c, 0x00, 0x00, 0x00, 0x08, 0x00, 0x0e, 0x00,
  0x08, 0x00, 0x04, 0x00, 0x08, 0x00, 0x00, 0x00, 0x10, 0x00, 0x00, 0x00,
  0x28, 0x00, 0x00, 0x00, 0x00, 0x00, 0x06, 0x00, 0x08, 0x00, 0x04, 0x00,
  0x06, 0x00, 0x00, 0x00, 0x04, 0x00, 0x00, 0x00, 0x01, 0x00, 0x00, 0x00,
  0xea, 0x03, 0x00, 0x00, 0x0c, 0x00, 0x18, 0x00, 0x14, 0x00, 0x10, 0x00,
  0x0c, 0x00, 0x04, 0x00, 0x0c, 0x00, 0x00, 0x00, 0x80, 0x19, 0x39, 0xa9,
  0xfa, 0x17, 0xdf, 0x85, 0x02, 0x00, 0x00, 0x00, 0x02, 0x00, 0x00, 0x00,
  0x04, 0x00, 0x00, 0x00, 0x06, 0x00, 0x00, 0x00, 0x32, 0x2e, 0x31, 0x39,
  0x2e, 0x30, 0x00, 0x00, 0x6e, 0xf1, 0xff, 0xff, 0x04, 0x00, 0x00, 0x00,
  0x10, 0x00, 0x00, 0x00, 0x32, 0x2e, 0x31, 0x37, 0x2e, 0x30, 0x00, 0x00,
  0x00, 0x00, 0x00, 0x00, 0x00, 0x00, 0x00, 0x00, 0x60, 0xe8, 0xff, 0xff,
  0x64, 0xe8, 0xff, 0xff, 0x68, 0xe8, 0xff, 0xff, 0x6c, 0xe8, 0xff, 0xff,
  0x9a, 0xf1, 0xff, 0xff, 0x04, 0x00, 0x00, 0x00, 0x00, 0x04, 0x00, 0x00,
  0xb8, 0xc0, 0xde, 0x64, 0x95, 0x82, 0x90, 0x6e, 0x4c, 0xa2, 0x1b, 0x78,
  0xf2, 0x4f, 0xa9, 0x4f, 0x09, 0x56, 0x0b, 0xf1, 0x35, 0xf1, 0x86, 0xdf,
  0xc9, 0x3d, 0x07, 0xd8, 0xe3, 0xa4, 0xd6, 0x81, 0x8b, 0xeb, 0x1a, 0x35,
  0x22, 0x57, 0xfd, 0xa4, 0x20, 0xa7, 0x3a, 0x35, 0xb3, 0xfa, 0xbd, 0xcd,
  0x98, 0xfd, 0x81, 0x0b, 0x00, 0x44, 0x3f, 0x2c, 0x0e, 0x9b, 0xff, 0x16,
  0x44, 0xff, 0xbf, 0x43, 0x31, 0x52, 0xb8, 0xf3, 0x49, 0xf7, 0x9d, 0xfa,
  0x5a, 0x52, 0xd3, 0xa0, 0x41, 0x33, 0xbb, 0xdd, 0xf0, 0xa7, 0xb6, 0x0e,
  0x85, 0x81, 0xe3, 0x1e, 0xb8, 0xb3, 0xdc, 0x25, 0x04, 0x12, 0xcd, 0xa2,
  0x75, 0xd5, 0x92, 0x4c, 0x34, 0xd0, 0x2a, 0x99, 0x9d, 0x85, 0xaf, 0x96,
  0xf0, 0x7f, 0x71, 0x6d, 0xc8, 0x29, 0x8c, 0x66, 0x4f, 0x69, 0x03, 0xe4,
  0xea, 0xa6, 0x90, 0xb1, 0xee, 0xab, 0xcb, 0xb5, 0x5b, 0x2c, 0x58, 0xb4,
  0x66, 0x26, 0x7d, 0xe5, 0xed, 0x68, 0x4e, 0xbb, 0xbd, 0xc1, 0x87, 0xf0,
  0x53, 0x0b, 0x11, 0xee, 0xb7, 0x40, 0x05, 0x50, 0x88, 0x7f, 0x04, 0xbd,
  0x46, 0xb3, 0xcf, 0x67, 0x72, 0x64, 0xaa, 0x57, 0xd2, 0xe9, 0xe6, 0x97,
  0x71, 0x6c, 0x7c, 0x25, 0xd3, 0x52, 0x13, 0xed, 0xbb, 0xe1, 0xe6, 0xf5,
  0x7f, 0xe8, 0x10, 0x92, 0xec, 0x67, 0x5c, 0x21, 0xd5, 0x24, 0x79, 0x9f,
  0xc3, 0x8f, 0xa5, 0xbc, 0x8c, 0x87, 0x7f, 0xce, 0x70, 0xf5, 0x00, 0x2d,
  0xe6, 0x66, 0x41, 0x97, 0xde, 0x5a, 0x39, 0x99, 0x49, 0xe5, 0xb3, 0x7c,
  0xfc, 0xef, 0x66, 0x57, 0x2c, 0x43, 0xc5, 0x83, 0x98, 0xe4, 0x6f, 0xa0,
  0x52, 0x46, 0x4f, 0x3b, 0x39, 0x30, 0x48, 0x32, 0x6f, 0xea, 0xf9, 0x8d,
  0x8b, 0x21, 0xf6, 0x2b, 0x9c, 0x06, 0x82, 0x81, 0x1e, 0x3c, 0xbd, 0xc6,
  0xb2, 0x76, 0xb0, 0x04, 0x6f, 0x08, 0x7c, 0x9f, 0xdd, 0x21, 0x19, 0x76,
  0xfd, 0x74, 0xea, 0x23, 0x44, 0xce, 0x42, 0x44, 0x22, 0xe1, 0xdb, 0x64,
  0x44, 0xe6, 0x03, 0xd9, 0x81, 0xd9, 0x1b, 0xc7, 0x25, 0xbd, 0xed, 0x56,
  0x8b, 0x89, 0xeb, 0x9f, 0xb2, 0x5f, 0xf5, 0x62, 0x22, 0xd4, 0xa5, 0x4c,
  0x7e, 0x37, 0xf7, 0xa2, 0x37, 0x38, 0xa8, 0xa2, 0x7f, 0xb2, 0x3d, 0x95,
  0x91, 0x64, 0x6b, 0xfb, 0x8d, 0xd2, 0x89, 0x6c, 0xc6, 0xf0, 0xf2, 0x14,
  0x31, 0xf2, 0x19, 0x1b, 0x33, 0x0b, 0x1e, 0xef, 0xf0, 0xce, 0x1a, 0xc6,
  0x37, 0xc8, 0xa7, 0xe0, 0xd8, 0xf8, 0xd3, 0xff, 0x1c, 0x07, 0xe7, 0x2f,
  0x29, 0x0a, 0x81, 0x3b, 0x05, 0x50, 0xbb, 0xf1, 0x63, 0xe2, 0xd1, 0x81,
  0xe2, 0x15, 0x04, 0x06, 0xb8, 0x00, 0x1a, 0x7c, 0x9e, 0x55, 0xb2, 0x5d,
  0xb2, 0x15, 0xaf, 0x13, 0x9a, 0xd2, 0x0a, 0x63, 0x78, 0xf4, 0xc2, 0x93,
  0x70, 0xba, 0xf2, 0x81, 0xb3, 0x86, 0x89, 0xea, 0x60, 0x91, 0x0c, 0x50,
  0x0e, 0x6e, 0x20, 0xe2, 0x59, 0xbc, 0xef, 0xfd, 0x59, 0xea, 0x43, 0x20,
  0x0b, 0xf4, 0x5c, 0xc7, 0x84, 0x48, 0x51, 0x2b, 0x00, 0x44, 0xbf, 0x98,
  0x4d, 0xdf, 0x5e, 0x99, 0x9b, 0x6b, 0x21, 0x9c, 0x87, 0x1b, 0x73, 0x6e,
  0x31, 0x58, 0x19, 0x3b, 0x53, 0x30, 0xf4, 0x28, 0x40, 0x29, 0x00, 0x52,
  0xe3, 0x81, 0x81, 0x69, 0x55, 0x30, 0x33, 0x02, 0x31, 0xc0, 0x49, 0x6f,
  0x8b, 0x7f, 0xa3, 0x11, 0x66, 0x30, 0x7d, 0x58, 0x25, 0xd6, 0x08, 0x17,
  0x45, 0x7a, 0xdf, 0xbb, 0xdc, 0x02, 0x24, 0x5b, 0x9e, 0x33, 0x61, 0xcb,
  0x9b, 0x4d, 0x25, 0x32, 0x33, 0xfa, 0x48, 0x3c, 0xbc, 0x35, 0x81, 0xbb,
  0xab, 0xe4, 0xc4, 0x3a, 0x8b, 0x06, 0xad, 0x2a, 0xda, 0x10, 0xbb, 0x66,
  0xf6, 0xa8, 0x22, 0xe8, 0xb3, 0xd7, 0x8b, 0xf2, 0x23, 0x13, 0x34, 0xde,
  0x30, 0xdd, 0xf2, 0xec, 0x32, 0xd1, 0xf4, 0x1e, 0xce, 0x81, 0xd8, 0x3c,
  0xd9, 0xe1, 0x28, 0x1c, 0x45, 0xe5, 0x38, 0x07, 0xe7, 0xd7, 0xd3, 0x3a,
  0x0a, 0x3d, 0xf0, 0xf1, 0xca, 0x10, 0x8f, 0x2c, 0x37, 0x93, 0xba, 0xc6,
  0x1b, 0x13, 0xfd, 0x39, 0xe3, 0x81, 0x62, 0x19, 0xa8, 0x0c, 0x86, 0x1e,
  0x56, 0xb3, 0x56, 0xf9, 0x8b, 0xc4, 0xbf, 0x2a, 0x66, 0xd3, 0x28, 0x24,
  0xe8, 0xb7, 0x4c, 0x23, 0x44, 0xea, 0xe4, 0x3e, 0x14, 0x67, 0x97, 0x23,
  0xfb, 0x2e, 0xe1, 0x8a, 0x03, 0x40, 0x94, 0x53, 0xcf, 0xa1, 0x65, 0xd1,
  0x60, 0xdc, 0xec, 0x5c, 0x81, 0x68, 0x3f, 0x5d, 0xd7, 0x23, 0xe9, 0x59,
  0xc1, 0x3f, 0x22, 0xd8, 0xec, 0x1f, 0x0f, 0x2e, 0xb1, 0x81, 0x31, 0x1b,
  0xed, 0x0d, 0x1c, 0x3e, 0xd0, 0xb8, 0x09, 0x0f, 0xbd, 0x45, 0x1a, 0xe2,
  0x1c, 0x2d, 0x2d, 0xee, 0x0d, 0x0d, 0xe7, 0xfd, 0x24, 0xad, 0x98, 0x10,
  0x64, 0x03, 0xee, 0xfb, 0x42, 0x41, 0xdc, 0x64, 0x9c, 0x0e, 0xa9, 0x50,
  0xac, 0xe3, 0xe6, 0x81, 0xbf, 0xe1, 0x0b, 0x07, 0xb2, 0x72, 0xb8, 0x20,
  0x6b, 0x6f, 0x6f, 0x94, 0xcb, 0xb9, 0x67, 0x6c, 0xe9, 0x29, 0x28, 0x7f,
  0xaf, 0xe3, 0x3c, 0x2b, 0xc4, 0x53, 0xc5, 0xd6, 0x6c, 0x44, 0x58, 0x01,
  0xaa, 0xcd, 0xae, 0x94, 0x17, 0x84, 0xa1, 0x76, 0xae, 0xee, 0xc0, 0x5f,
  0x35, 0x1e, 0xe6, 0x43, 0xba, 0x41, 0x05, 0x20, 0x58, 0x7f, 0xea, 0x64,
  0xde, 0xb9, 0x4d, 0x24, 0x6d, 0x2a, 0xaa, 0xe3, 0x64, 0x35, 0x30, 0x04,
  0xae, 0xe6, 0x08, 0x23, 0xb2, 0xda, 0x5d, 0x85, 0x29, 0x45, 0xdb, 0x42,
  0xdd, 0xcf, 0x46, 0xe2, 0x0d, 0x1c, 0xc6, 0xe9, 0x83, 0xf2, 0x0d, 0x10,
  0x99, 0x97, 0xc2, 0xd4, 0x0b, 0xae, 0xfa, 0x21, 0x32, 0x81, 0xb8, 0xe5,
  0xde, 0x41, 0x43, 0xfc, 0x47, 0xf6, 0x36, 0xc8, 0xbf, 0xf8, 0x3a, 0x34,
  0xb5, 0x09, 0x7f, 0x74, 0xdc, 0xdf, 0x29, 0xec, 0x38, 0x40, 0x09, 0x4b,
  0xa3, 0x95, 0xad, 0xb5, 0x0d, 0x52, 0x5c, 0xc4, 0x46, 0xf1, 0xfc, 0x4f,
  0x00, 0xd8, 0xf9, 0x07, 0x1b, 0x05, 0xc6, 0x59, 0xcc, 0x4f, 0xc6, 0x15,
  0xa8, 0x46, 0x4b, 0xbd, 0xf5, 0xc2, 0x34, 0xe7, 0x81, 0xc9, 0xf9, 0xa6,
  0x3a, 0x0c, 0x7f, 0x0f, 0x99, 0xbc, 0xe5, 0x76, 0xc4, 0x24, 0x81, 0xd3,
  0x84, 0x40, 0x3f, 0xac, 0x3c, 0xac, 0x15, 0xcf, 0x45, 0x6c, 0xb9, 0xb7,
  0x00, 0x3e, 0xac, 0xc6, 0xfc, 0x55, 0xb1, 0x93, 0x46, 0xc1, 0x1a, 0xd9,
  0x4e, 0x29, 0x32, 0x23, 0xe4, 0xc9, 0xbc, 0xa4, 0xf8, 0x19, 0x56, 0x0e,
  0x57, 0xc9, 0x3d, 0x95, 0xe4, 0xdf, 0x59, 0xde, 0x81, 0x46, 0x94, 0x1a,
  0x6d, 0x23, 0x37, 0xad, 0x1b, 0xe8, 0x9e, 0xe8, 0x1b, 0x1e, 0x4b, 0xbd,
  0x09, 0x13, 0x1b, 0x45, 0xf8, 0x06, 0x61, 0x59, 0x51, 0x18, 0x44, 0x0f,
  0xd9, 0x04, 0xa5, 0x47, 0x10, 0x28, 0xfb, 0x8e, 0x81, 0x1c, 0xe5, 0xf5,
  0x32, 0xe9, 0x4f, 0x95, 0xbb, 0xfd, 0x1c, 0x02, 0xcd, 0x49, 0xda, 0x55,
  0xb6, 0x3b, 0xd7, 0x9c, 0xc5, 0x81, 0xb5, 0x1b, 0xe7, 0x3a, 0xeb, 0xa0,
  0x1f, 0x3f, 0x1d, 0xf0, 0x87, 0x21, 0xf9, 0xf6, 0x2f, 0xdb, 0x19, 0xe2,
  0xbd, 0x6d, 0xdb, 0x7d, 0x89, 0xd4, 0xc2, 0xf8, 0xc0, 0x5d, 0xa9, 0x5b,
  0x93, 0xbb, 0x94, 0xc4, 0x97, 0x08, 0xd3, 0xf4, 0x55, 0x32, 0x66, 0xd3,
  0x3f, 0x43, 0x67, 0xa6, 0xa6, 0x07, 0x7f, 0x5c, 0x8e, 0xcb, 0x69, 0x1a,
  0x90, 0x15, 0x66, 0xc8, 0xc7, 0xe4, 0xd6, 0x7f, 0xfa, 0x76, 0xd7, 0x4f,
  0x08, 0x00, 0xd4, 0xd8, 0x62, 0xb6, 0x5e, 0x5e, 0xf3, 0x90, 0x8f, 0x1d,
  0xc1, 0x91, 0x3c, 0x49, 0xa6, 0xf5, 0xff, 0xff, 0x04, 0x00, 0x00, 0x00,
  0x40, 0x06, 0x00, 0x00, 0x10, 0xb5, 0xf7, 0xe7, 0x31, 0xf4, 0xc9, 0xa8,
  0xf8, 0xbe, 0x3e, 0xa4, 0x81, 0x14, 0x61, 0xbf, 0x13, 0xb2, 0x14, 0x2b,
  0x08, 0x78, 0xdd, 0xdc, 0x1d, 0xd4, 0xde, 0x0e, 0x07, 0xc0, 0xb7, 0xed,
  0x06, 0xf4, 0xf1, 0xfb, 0x06, 0xe2, 0x19, 0xef, 0x09, 0xf4, 0xea, 0xe9,
  0x0a, 0xf5, 0x16, 0x0f, 0xcb, 0x0e, 0x10, 0x81, 0xf8, 0x1b, 0xe7, 0x09,
  0x05, 0xe3, 0xfe, 0x03, 0xf8, 0xd4, 0x0a, 0xf6, 0xde, 0x2a, 0x37, 0xfc,
  0xe4, 0x6d, 0x6a, 0x36, 0x59, 0x4b, 0xb0, 0x7f, 0x8b, 0xc2, 0x35, 0x6f,
  0xe6, 0x01, 0x34, 0xfd, 0xdf, 0xd7, 0x35, 0x04, 0xd0, 0xf3, 0x17, 0xcc,
  0xea, 0x0f, 0x08, 0x1b, 0x88, 0x0e, 0xce, 0xb7, 0xf4, 0x6e, 0xfa, 0x49,
  0xe9, 0x89, 0xca, 0x7f, 0x77, 0x1e, 0x59, 0x11, 0xc5, 0xde, 0xa8, 0x23,
  0xf3, 0x50, 0xf8, 0xfb, 0xd2, 0x30, 0xc3, 0x18, 0x26, 0x9d, 0x06, 0x19,
  0xc8, 0x48, 0x57, 0x2f, 0xe5, 0x18, 0xa4, 0x1c, 0x51, 0xf6, 0xea, 0xa0,
  0xe5, 0x9a, 0x56, 0xc8, 0xcd, 0x54, 0x67, 0x43, 0xfd, 0x54, 0x81, 0xac,
  0xeb, 0xe1, 0xe6, 0xd5, 0xd9, 0x43, 0xf9, 0x63, 0x0b, 0xc8, 0x36, 0xf4,
  0x81, 0xff, 0xcc, 0xce, 0x3e, 0xc6, 0xb0, 0xec, 0xb3, 0x94, 0x1e, 0x50,
  0xcc, 0x21, 0xd5, 0x2d, 0x5b, 0xb3, 0xb8, 0xb1, 0x0a, 0xbf, 0x19, 0x27,
  0x4e, 0x86, 0xf8, 0x04, 0xc5, 0x02, 0x36, 0xa6, 0x4b, 0x6a, 0x25, 0xea,
  0x3c, 0xea, 0x81, 0xe4, 0x82, 0x38, 0xfd, 0xd1, 0x07, 0xf2, 0x40, 0x19,
  0x38, 0xe6, 0x02, 0x4d, 0xd6, 0x42, 0x6a, 0x12, 0xe1, 0x35, 0x29, 0x2b,
  0xef, 0x21, 0x08, 0xf4, 0x0b, 0x1f, 0x11, 0x18, 0x00, 0x14, 0x0a, 0xed,
  0xc8, 0xee, 0xf3, 0x2f, 0x81, 0xed, 0xed, 0xdc, 0x2a, 0xf6, 0x07, 0x15,
  0xf3, 0xf6, 0xed, 0x14, 0xe7, 0xb6, 0x0a, 0xcc, 0x00, 0x1d, 0x0c, 0x0f,
  0x39, 0xd4, 0x29, 0xe7, 0x56, 0x18, 0xf4, 0x48, 0xac, 0xfa, 0xba, 0xfc,
  0x81, 0xbf, 0x2e, 0x89, 0x2d, 0x08, 0xf4, 0x14, 0x33, 0xf2, 0xdd, 0x40,
  0x31, 0x2d, 0x1d, 0x34, 0x41, 0x10, 0xe1, 0xe3, 0x23, 0xd5, 0xb6, 0xf9,
  0xfc, 0xad, 0xb1, 0xb8, 0xb7, 0x32, 0xe2, 0xc5, 0xea, 0x2c, 0xe8, 0x6a,
  0x10, 0x20, 0x1d, 0x81, 0x32, 0x4c, 0xf5, 0x42, 0x29, 0x3b, 0x16, 0x5b,
  0xcf, 0xd0, 0x1d, 0x00, 0xd5, 0xc9, 0xad, 0x24, 0xf3, 0x37, 0x5e, 0x1d,
  0xe9, 0x0b, 0xcc, 0x41, 0xc7, 0x0b, 0xb8, 0x86, 0xc7, 0x37, 0x0f, 0x81,
  0xd2, 0xbc, 0xcb, 0xe9, 0xca, 0xe7, 0xd6, 0x41, 0x10, 0x1f, 0xfc, 0xe1,
  0x21, 0xb4, 0x1d, 0x1b, 0xeb, 0x0e, 0x35, 0x22, 0x0c, 0x34, 0x15, 0x2d,
  0x81, 0x32, 0x34, 0xae, 0x17, 0xe3, 0xde, 0x2f, 0xcd, 0xd1, 0x0f, 0x11,
  0x0e, 0x10, 0xe5, 0x33, 0x03, 0xf7, 0x11, 0xe7, 0x1a, 0xe6, 0xf5, 0x0c,
  0xf5, 0x05, 0x03, 0xff, 0x01, 0xff, 0xe9, 0x02, 0xbf, 0x06, 0xfb, 0x98,
  0x12, 0x00, 0xf6, 0xb0, 0x04, 0xf9, 0xfc, 0x18, 0xf0, 0x81, 0xe7, 0xef,
  0xd7, 0x19, 0x0d, 0xd5, 0xf9, 0xc8, 0xfe, 0xe9, 0x1c, 0xd8, 0x00, 0x1d,
  0x28, 0x13, 0xf7, 0xfe, 0xea, 0x0e, 0xe9, 0xf5, 0xda, 0x1e, 0x81, 0xf7,
  0xe1, 0x18, 0x26, 0xd7, 0x15, 0x27, 0x1b, 0x0b, 0xed, 0x18, 0xea, 0xfb,
  0xfb, 0x9d, 0x00, 0xfe, 0x21, 0x0c, 0xeb, 0x09, 0xe3, 0x13, 0x15, 0xf2,
  0x81, 0x1e, 0x1b, 0xe7, 0xcf, 0x05, 0xbc, 0xfe, 0x1a, 0x17, 0xeb, 0xfe,
  0xe6, 0xfb, 0xe9, 0x10, 0xfa, 0x01, 0x11, 0x22, 0xdf, 0xcb, 0x18, 0x24,
  0x20, 0x08, 0x11, 0x05, 0x0a, 0x28, 0x10, 0xc6, 0xa2, 0xf0, 0x21, 0x81,
  0x0c, 0x24, 0xec, 0xe8, 0xe5, 0xe8, 0xff, 0xf5, 0xcb, 0xf0, 0xdd, 0x2b,
  0xf7, 0x14, 0x05, 0xfe, 0xef, 0xe4, 0xf8, 0xeb, 0x04, 0xee, 0xf2, 0x0e,
  0x12, 0x11, 0x0c, 0x11, 0xac, 0xef, 0xfe, 0x9f, 0xf2, 0xee, 0xed, 0xd3,
  0xf6, 0x01, 0xf9, 0x08, 0xed, 0x81, 0x12, 0x00, 0xf5, 0x1a, 0x0c, 0x22,
  0xec, 0xef, 0x02, 0xf9, 0x0c, 0x19, 0x2b, 0xef, 0xde, 0x09, 0x1a, 0xcf,
  0x81, 0xe0, 0xf7, 0xcb, 0xac, 0x34, 0xf9, 0xde, 0xf4, 0xdf, 0x11, 0xef,
  0x05, 0xe6, 0xd9, 0x2b, 0xf3, 0xdc, 0x16, 0xfb, 0x20, 0xea, 0xe1, 0xe1,
  0xdf, 0x0b, 0xfd, 0xf7, 0xe3, 0x26, 0xe0, 0x0f, 0xe6, 0xe0, 0xe6, 0xc3,
  0x81, 0x02, 0xef, 0xe8, 0x0a, 0x17, 0x18, 0x0b, 0x11, 0xef, 0x15, 0xf9,
  0x12, 0x08, 0xd7, 0x32, 0xf8, 0x1a, 0xf7, 0x4b, 0xdd, 0x3a, 0x37, 0x33,
  0x11, 0x81, 0xe2, 0x92, 0x9b, 0xe0, 0xf0, 0xcc, 0x17, 0x35, 0xbf, 0x07,
  0x2a, 0xdd, 0xe5, 0xc9, 0x19, 0xf3, 0xdd, 0x0c, 0x0a, 0xf2, 0xd8, 0xcc,
  0x0b, 0xf0, 0xee, 0xe9, 0xff, 0x3d, 0x29, 0xd4, 0xf2, 0x27, 0x13, 0xe5,
  0x30, 0x10, 0xe3, 0xeb, 0xf3, 0x16, 0x81, 0xc1, 0x06, 0xd5, 0xe6, 0xf7,
  0x34, 0xd8, 0xef, 0xe9, 0xd7, 0xcf, 0x03, 0xdf, 0x06, 0xf1, 0xce, 0xd5,
  0xfc, 0x1a, 0xf8, 0xed, 0x0e, 0x05, 0x16, 0xe1, 0x0e, 0x31, 0xd1, 0xe2,
  0xe6, 0xfb, 0x81, 0xec, 0x26, 0xe8, 0x21, 0x2d, 0xd6, 0xf3, 0xed, 0xeb,
  0xda, 0x06, 0x26, 0x2b, 0xe5, 0xef, 0x27, 0xd9, 0xfc, 0x0c, 0x29, 0x02,
  0xd8, 0xc6, 0x2a, 0xbf, 0xc9, 0x11, 0xf4, 0x14, 0x19, 0x19, 0x81, 0xd0,
  0xfb, 0xed, 0xfc, 0xea, 0xe1, 0xcc, 0x0a, 0x2e, 0x0e, 0xf8, 0xef, 0x0d,
  0xf1, 0xdd, 0x0b, 0xfa, 0xee, 0x10, 0x00, 0x08, 0x04, 0x03, 0x0c, 0xf6,
  0x81, 0xf8, 0x02, 0xe1, 0x08, 0x0b, 0xf6, 0xf5, 0x02, 0x0d, 0xf6, 0x0e,
  0x01, 0xf6, 0x05, 0x0d, 0x03, 0xf5, 0xff, 0x05, 0x04, 0xfa, 0xf8, 0xf5,
  0xfb, 0x00, 0x08, 0xf7, 0x04, 0xfc, 0x04, 0x07, 0x81, 0xf8, 0x03, 0xb4,
  0xfc, 0x08, 0xe0, 0xe7, 0xf2, 0x0b, 0x0d, 0x0d, 0x04, 0xd0, 0x07, 0xf7,
  0xfb, 0xfc, 0xf7, 0x0b, 0xf7, 0xec, 0xfc, 0x07, 0x0a, 0xfd, 0xf9, 0x02,
  0xfb, 0xfe, 0xfb, 0xf6, 0x81, 0x01, 0x02, 0xef, 0xfb, 0xfd, 0xf0, 0xf4,
  0x04, 0x00, 0xfe, 0x0a, 0x04, 0x0b, 0x0c, 0xfc, 0xcc, 0xf4, 0xeb, 0xcb,
  0x1c, 0x81, 0xed, 0x19, 0xfd, 0x24, 0xe4, 0x1e, 0xed, 0x42, 0x1d, 0xf4,
  0xe2, 0xc9, 0xfd, 0xf4, 0xcb, 0x35, 0xba, 0xcc, 0xf8, 0xc2, 0xdf, 0x3b,
  0xe4, 0x1a, 0xd5, 0xea, 0xe3, 0xeb, 0x11, 0x1c, 0xea, 0x05, 0x09, 0x11,
  0xf9, 0xfd, 0x17, 0x03, 0x16, 0x2c, 0xf5, 0x12, 0xa2, 0xe7, 0xe2, 0xb5,
  0x0a, 0x14, 0xac, 0xee, 0x15, 0x17, 0xf5, 0xf6, 0xe6, 0x81, 0x07, 0x06,
  0xfd, 0xf3, 0x1a, 0x21, 0xf0, 0x26, 0xe3, 0x17, 0x1f, 0x03, 0xf4, 0xda,
  0x22, 0xd3, 0xf7, 0xef, 0xd2, 0x11, 0xfe, 0xee, 0x07, 0xf2, 0x81, 0xbf,
  0xf6, 0x1b, 0xf5, 0x10, 0xe0, 0x21, 0xe9, 0xdb, 0x30, 0xde, 0x25, 0xf6,
  0x9d, 0xcf, 0xd7, 0x22, 0xb9, 0x15, 0x83, 0xeb, 0xfc, 0xbc, 0x25, 0xe6,
  0x0e, 0xfd, 0xd1, 0x30, 0x1f, 0xf9, 0x81, 0x0d, 0x25, 0xd8, 0xb3, 0xe7,
  0xbc, 0x14, 0xf0, 0xeb, 0xf9, 0xdb, 0x14, 0x25, 0xb5, 0xe9, 0xe1, 0x11,
  0xae, 0xd5, 0xb5, 0xd3, 0xc8, 0x05, 0x11, 0x20, 0x08, 0xee, 0x09, 0x2d,
  0x0f, 0xf2, 0x81, 0x14, 0x29, 0x0c, 0xe1, 0xc7, 0xdc, 0xcc, 0x28, 0xe6,
  0xfe, 0xfb, 0x02, 0xf9, 0xfb, 0x03, 0x02, 0xfb, 0x03, 0x00, 0xfe, 0x02,
  0xf9, 0x81, 0x05, 0x02, 0xfc, 0xff, 0xfa, 0xf6, 0x06, 0x00, 0xdc, 0xff,
  0xfc, 0xf9, 0xfd, 0xfb, 0xfb, 0xce, 0xfe, 0xff, 0xd4, 0x8b, 0xd7, 0xd0,
  0xa0, 0x3a, 0xc0, 0xf9, 0xb4, 0x42, 0x81, 0x2d, 0x37, 0x9e, 0xd0, 0x16,
  0xea, 0xd1, 0x47, 0xfe, 0x31, 0xeb, 0x9c, 0x30, 0x0d, 0xca, 0xc1, 0xf1,
  0xff, 0xed, 0xfa, 0x27, 0xff, 0x04, 0x0a, 0xf1, 0xf0, 0x07, 0xfa, 0xfd,
  0xd5, 0xf2, 0xe5, 0x07, 0xee, 0x81, 0xf7, 0xfb, 0x02, 0xf9, 0xf1, 0x02,
  0x07, 0xfb, 0xd4, 0x01, 0xee, 0x05, 0xf0, 0xf1, 0x0b, 0xfc, 0x0c, 0x01,
  0xfb, 0xfc, 0x06, 0xfe, 0xed, 0xff, 0x03, 0xfc, 0xf7, 0x08, 0xfe, 0xfd,
  0xf6, 0x83, 0xfe, 0xff, 0x00, 0xf9, 0xfc, 0x07, 0xff, 0xff, 0xdd, 0xf3,
  0x02, 0xfd, 0x04, 0xfa, 0xfe, 0x81, 0xfb, 0xfe, 0x14, 0x02, 0xf5, 0x14,
  0xe8, 0xef, 0xfc, 0xe6, 0xe7, 0x06, 0xfa, 0xf5, 0x11, 0x81, 0x03, 0xfc,
  0x14, 0xee, 0x02, 0xf2, 0x03, 0xfd, 0x99, 0x04, 0x05, 0x07, 0xe6, 0x07,
  0x06, 0x9f, 0x04, 0xf9, 0xfd, 0x04, 0xff, 0x07, 0xfd, 0xfd, 0xfd, 0xfe,
  0x00, 0xfa, 0xff, 0x03, 0xfb, 0xeb, 0xf9, 0x00, 0xff, 0x05, 0x04, 0x04,
  0xfb, 0xfd, 0x81, 0xfe, 0xfa, 0xf6, 0xf9, 0x05, 0xff, 0xea, 0xfd, 0x02,
  0x19, 0x00, 0x1c, 0xfd, 0xf7, 0xfb, 0x00, 0xfb, 0xf8, 0xef, 0xe8, 0x08,
  0x0c, 0xc5, 0x17, 0x0d, 0x81, 0x17, 0x06, 0xff, 0xed, 0x04, 0xe9, 0xe5,
  0x01, 0xfa, 0x12, 0xed, 0xed, 0xf5, 0xf9, 0xfe, 0x0d, 0x1e, 0x08, 0x07,
  0x1d, 0xe1, 0x01, 0xfb, 0xe5, 0x14, 0xe8, 0x16, 0xe2, 0xfe, 0x15, 0xf1,
  0x81, 0x1f, 0xfd, 0x06, 0xbe, 0xcc, 0x0a, 0xf3, 0xf5, 0xf0, 0xe0, 0xe2,
  0x1a, 0xfc, 0xf8, 0xe0, 0xff, 0x09, 0x08, 0xf5, 0xfa, 0xf7, 0x04, 0xf2,
  0xfd, 0x02, 0x02, 0xff, 0xf5, 0x00, 0xf4, 0x07, 0x04, 0xfe, 0xf5, 0xd4,
  0xe8, 0x08, 0x81, 0xfc, 0x00, 0xf8, 0xfa, 0xff, 0x02, 0xff, 0x06, 0xf9,
  0x0a, 0x02, 0xfc, 0x07, 0x0d, 0xf8, 0xfa, 0x05, 0xfd, 0xf9, 0x03, 0x02,
  0x07, 0xfd, 0xf4, 0x00, 0xf8, 0x08, 0xf6, 0x00, 0xfd, 0x06, 0x81, 0x08,
  0xf7, 0xf7, 0x00, 0xf7, 0xfe, 0xf3, 0x00, 0x08, 0xfa, 0xfd, 0xfe, 0xf8,
  0xfb, 0xfc, 0xfd, 0xfe, 0xfa, 0x02, 0x03, 0x08, 0x02, 0x09, 0x09, 0x05,
  0xf8, 0x07, 0xfc, 0x81, 0x04, 0xfe, 0xe1, 0x04, 0xf9, 0xf7, 0xfd, 0x01,
  0x09, 0xf3, 0xfc, 0xfd, 0x08, 0x0b, 0xfb, 0xf3, 0x03, 0xee, 0xff, 0xfe,
  0xf1, 0x02, 0xf3, 0x08, 0x03, 0xf7, 0xee, 0xf4, 0xfe, 0xfe, 0xf4, 0xce,
  0xfb, 0x10, 0x81, 0xfa, 0x0c, 0x0a, 0xf1, 0x04, 0xff, 0xea, 0xf3, 0x03,
  0x04, 0x0d, 0x08, 0xf9, 0xeb, 0xed, 0x14, 0xe4, 0xfa, 0x08, 0xe9, 0x07,
  0xee, 0x12, 0x0b, 0x02, 0xe3, 0x01, 0xed, 0x14, 0xd1, 0x03, 0x81, 0x08,
  0x0a, 0x0b, 0xf3, 0x0f, 0xf7, 0x10, 0xf4, 0x08, 0xf6, 0xe3, 0xde, 0xec,
  0xf4, 0x01, 0xed, 0x0b, 0x14, 0x0a, 0xfb, 0xdc, 0x1c, 0x16, 0xdf, 0x1b,
  0x03, 0x0c, 0x02, 0xbe, 0xff, 0xfd, 0x81, 0xe8, 0x0b, 0xd7, 0x09, 0x11,
  0x04, 0xdb, 0xdf, 0xed, 0xf9, 0xf8, 0x04, 0xef, 0x09, 0xd3, 0x02, 0x01,
  0x02, 0xf5, 0xff, 0x01, 0xed, 0x19, 0x04, 0xf1, 0x08, 0x09, 0xff, 0xe1,
  0xd0, 0xfc, 0x81, 0x01, 0x0d, 0xff, 0xeb, 0x08, 0xfe, 0x0c, 0xf8, 0xef,
  0xe0, 0x12, 0x08, 0x06, 0xf8, 0xf7, 0x05, 0xea, 0xd2, 0xeb, 0xff, 0xf9,
  0xfe, 0x18, 0xf5, 0x10, 0x81, 0x0d, 0xff, 0xe3, 0xcd, 0xef, 0xe6, 0xfb,
  0x17, 0x17, 0xed, 0x10, 0x0d, 0x09, 0xf7, 0xf8, 0x10, 0xff, 0xf5, 0xf4,
  0x0e, 0x08, 0x05, 0x0c, 0x05, 0xeb, 0xf4, 0xfd, 0x03, 0x0e, 0xf4, 0xf7,
  0xf4, 0xf1, 0x0d, 0xc2, 0x06, 0xf4, 0x81, 0xf5, 0x0b, 0xfa, 0xf3, 0x18,
  0xfb, 0xa8, 0x0d, 0xf9, 0xfd, 0x02, 0x01, 0xf4, 0x0c, 0x81, 0x0b, 0x06,
  0x0e, 0xf6, 0xf8, 0x01, 0xf5, 0x05, 0x0a, 0x06, 0xe3, 0xf7, 0xfe, 0xf1,
  0xe7, 0x00, 0xeb, 0xf6, 0x03, 0x00, 0xfb, 0x01, 0xfc, 0xfd, 0xfc, 0x05,
  0x03, 0x11, 0x0a, 0xfe, 0x11, 0x81, 0xef, 0xed, 0x09, 0xee, 0xfe, 0xf5,
  0xea, 0x17, 0xf5, 0xed, 0xdf, 0x04, 0x02, 0xfc, 0xe2, 0xf3, 0xbc, 0xf2,
  0x11, 0xfe, 0x1e, 0x03, 0xf8, 0xec, 0x00, 0xfe, 0xf2, 0xfb, 0xff, 0xff,
  0x04, 0x00, 0x00, 0x00, 0x80, 0x00, 0x00, 0x00, 0xd8, 0xeb, 0xd7, 0xbc,
  0x82, 0x16, 0x3f, 0xbd, 0x35, 0x65, 0x02, 0xbd, 0x00, 0x00, 0x00, 0x00,
  0x93, 0xe9, 0x09, 0xbd, 0xd7, 0x8e, 0x77, 0x3d, 0x00, 0x00, 0x00, 0x00,
  0x5f, 0x4d, 0xfa, 0x3c, 0xaf, 0xd2, 0x35, 0x3d, 0x00, 0x00, 0x00, 0x00,
  0xa5, 0x88, 0xb5, 0xbc, 0x94, 0x1d, 0x8e, 0x3c, 0xa2, 0xe8, 0xf6, 0xbc,
  0x0b, 0x16, 0x4e, 0xbd, 0xc1, 0xf6, 0xfe, 0xbc, 0xeb, 0xb9, 0x31, 0xbd,
  0x5d, 0x54, 0x35, 0x3d, 0xee, 0xf7, 0x81, 0xbd, 0x00, 0x00, 0x00, 0x00,
  0x8d, 0x7f, 0x1a, 0xbd, 0xe6, 0x72, 0xdc, 0x3b, 0x6c, 0x8f, 0x2e, 0xbc,
  0xe1, 0xc1, 0xa6, 0x3c, 0x6a, 0xd2, 0x97, 0xbd, 0x99, 0xe1, 0xd7, 0xbd,
  0x19, 0xd3, 0xc5, 0xbd, 0x09, 0xb4, 0x2f, 0xbd, 0x61, 0xe4, 0xa5, 0xbd,
  0xea, 0x1b, 0x98, 0xbd, 0x1c, 0xcd, 0x5b, 0xbd, 0xfb, 0x2e, 0xa3, 0xbd,
  0x00, 0x00, 0x00, 0x00, 0x7e, 0xfc, 0xff, 0xff, 0x04, 0x00, 0x00, 0x00,
  0xc8, 0x00, 0x00, 0x00, 0xd4, 0xbd, 0x96, 0x3c, 0xca, 0xd9, 0x88, 0x3b,
  0x78, 0x59, 0x75, 0x3d, 0x24, 0x94, 0x45, 0x3d, 0xac, 0xc0, 0x1c, 0x3d,
  0x27, 0x9e, 0xf3, 0x3c, 0x65, 0x55, 0x1d, 0xbc, 0xb3, 0x4d, 0x12, 0x3d,
  0xde, 0xf3, 0x1d, 0x3d, 0x89, 0x1c, 0xb9, 0xbc, 0x98, 0x97, 0x6d, 0x3d,
  0xba, 0xd0, 0x26, 0x3d, 0xc8, 0xd0, 0x52, 0x3d, 0x97, 0xc6, 0xde, 0x3b,
  0x0d, 0xc7, 0x27, 0x3d, 0x5b, 0xf6, 0x58, 0xbd, 0x66, 0x17, 0x0e, 0x3d,
  0xa5, 0x33, 0x0c, 0xbd, 0x89, 0x51, 0x3d, 0xbd, 0x9b, 0x3b, 0xba, 0x3c,
  0x28, 0xcd, 0x09, 0xbb, 0x5a, 0x39, 0xae, 0xbb, 0x4c, 0xff, 0x08, 0xbd,
  0x9c, 0xc4, 0x45, 0xbd, 0xa1, 0x8b, 0x7c, 0x3c, 0x66, 0x72, 0x14, 0xbc,
  0xf8, 0x8c, 0x21, 0x3d, 0xc5, 0x56, 0x4a, 0x3d, 0xcd, 0x6b, 0x2c, 0xbc,
  0x06, 0x20, 0x1f, 0xbe, 0x10, 0x9e, 0x8b, 0xbd, 0x3d, 0x12, 0x30, 0xbd,
  0xed, 0xeb, 0x28, 0xbe, 0xcb, 0x85, 0xb1, 0xbd, 0x2b, 0x9b, 0x27, 0xbd,
  0x6c, 0x0b, 0x09, 0xbd, 0xd3, 0x05, 0xae, 0xbc, 0x97, 0x8c, 0x0f, 0x3d,
  0x33, 0xd1, 0xb3, 0xbd, 0x12, 0xf8, 0x3c, 0xbd, 0x50, 0x9c, 0x15, 0xbc,
  0xf6, 0x97, 0xcf, 0x3d, 0x5b, 0xc5, 0x86, 0x3c, 0xbe, 0x98, 0x37, 0xbd,
  0x61, 0x62, 0x3e, 0xbd, 0xc7, 0x4e, 0x18, 0x3d, 0x81, 0x5c, 0x30, 0xbd,
  0x1b, 0xa2, 0x85, 0x3d, 0xdb, 0x32, 0xe8, 0x3c, 0x05, 0xc8, 0xc5, 0x3d,
  0x52, 0xfd, 0xff, 0xff, 0x04, 0x00, 0x00, 0x00, 0x80, 0x00, 0x00, 0x00,
  0x00, 0x00, 0x00, 0x00, 0xe2, 0xc4, 0xfc, 0xbd, 0x00, 0x00, 0x00, 0x00,
  0xac, 0x84, 0xb3, 0xbd, 0x4e, 0xc4, 0x43, 0xbd, 0x11, 0x3d, 0x3b, 0xbd,
  0x00, 0x00, 0x00, 0x00, 0x00, 0x00, 0x00, 0x00, 0x00, 0x00, 0x00, 0x00,
  0x00, 0x00, 0x00, 0x00, 0xb3, 0x59, 0xa3, 0xbd, 0x00, 0x00, 0x00, 0x00,
  0x68, 0x2f, 0x95, 0xbc, 0xb3, 0xc0, 0x55, 0x3d, 0x00, 0x00, 0x00, 0x00,
  0x00, 0x00, 0x00, 0x00, 0xf4, 0xbb, 0x02, 0x3d, 0xa7, 0xa9, 0xf5, 0xbd,
  0xa8, 0x19, 0x38, 0xbd, 0xc0, 0xf3, 0x3d, 0x3d, 0x9e, 0x1b, 0xa2, 0xbd,
  0xc4, 0x96, 0x8c, 0xbd, 0x00, 0x00, 0x00, 0x00, 0x95, 0x19, 0x69, 0x3c,
  0x62, 0xde, 0x2b, 0x3d, 0xf9, 0x2f, 0x39, 0x3c, 0x00, 0x00, 0x00, 0x00,
  0x33, 0x05, 0x32, 0xbd, 0x6e, 0x28, 0xf2, 0xbd, 0xee, 0xd0, 0x60, 0xbd,
  0xb7, 0x66, 0x90, 0xbc, 0x1d, 0x6a, 0xa5, 0xbd, 0xde, 0xfd, 0xff, 0xff,
  0x04, 0x00, 0x00, 0x00, 0x80, 0x01, 0x00, 0x00, 0x85, 0xc8, 0xb0, 0xbe,
  0x08, 0x4b, 0x35, 0xbd, 0x4c, 0x7b, 0x82, 0xbe, 0x6a, 0x96, 0xf0, 0x3d,
  0x47, 0x2d, 0x11, 0x3e, 0x83, 0x3e, 0x70, 0x3e, 0xa8, 0x98, 0xa0, 0x3d,
  0xa0, 0x34, 0xcf, 0xbc, 0xe8, 0xf5, 0x9e, 0xbd, 0xf7, 0x1a, 0x4b, 0x3e,
  0x37, 0x5d, 0xa7, 0xbe, 0x5a, 0x12, 0xa3, 0x3e, 0x49, 0x74, 0x36, 0xbe,
  0x54, 0x4e, 0x78, 0xbd, 0x78, 0xc2, 0x7b, 0x3d, 0xf7, 0x55, 0x8a, 0xbe,
  0xf8, 0x0c, 0xb4, 0xbe, 0x5e, 0x05, 0xb0, 0x3e, 0x40, 0xd7, 0x98, 0xbe,
  0x61, 0x25, 0x9a, 0xbe, 0x00, 0x9a, 0x8d, 0xbb, 0x97, 0x7b, 0xd3, 0x3e,
  0xa0, 0xad, 0x4b, 0xbd, 0x0c, 0x0f, 0x96, 0xbe, 0xd4, 0x29, 0x80, 0xbd,
  0xa2, 0x48, 0x23, 0xbe, 0x17, 0x8a, 0x85, 0xbe, 0x54, 0x0d, 0xb0, 0x3d,
  0x3d, 0x6f, 0x94, 0xbe, 0x26, 0x21, 0x28, 0xbe, 0xf8, 0x0b, 0xdc, 0xbe,
  0x1b, 0xb2, 0xd4, 0xbe, 0xeb, 0x3c, 0x96, 0x3e, 0xf4, 0xc7, 0xfd, 0xbd,
  0x7a, 0xd1, 0xa5, 0xbe, 0xe1, 0x5c, 0xbb, 0xbe, 0xdb, 0x4e, 0x5a, 0xbe,
  0xc0, 0x00, 0x20, 0xbe, 0xfe, 0x43, 0xb5, 0x3e, 0x5e, 0x42, 0x0f, 0xbf,
  0xae, 0x1a, 0x08, 0xbe, 0x87, 0x5a, 0x1c, 0x3e, 0xd1, 0x54, 0xb4, 0xbe,
  0x9c, 0x03, 0x9f, 0xbe, 0x1e, 0x10, 0x47, 0xbe, 0x44, 0x99, 0x9e, 0x3d,
  0x80, 0x90, 0x5a, 0xbe, 0x09, 0xfd, 0xbd, 0xbe, 0x20, 0x2a, 0x07, 0xbe,
  0x01, 0x18, 0xc9, 0x3e, 0x05, 0x07, 0x87, 0xbe, 0x3e, 0x4d, 0x61, 0xbe,
  0x5f, 0x08, 0xbd, 0xbd, 0x81, 0xd0, 0x5b, 0x3e, 0x28, 0x78, 0x87, 0xbe,
  0xb8, 0x9c, 0xf7, 0xbd, 0x6c, 0x22, 0xdf, 0x3d, 0xe1, 0x82, 0x2b, 0xbe,
  0xe9, 0x7f, 0x52, 0xbe, 0x76, 0xd0, 0x00, 0x3e, 0x9d, 0x9a, 0x84, 0x3e,
  0x06, 0x23, 0xf0, 0x3d, 0x8e, 0xd2, 0x01, 0x3c, 0xfc, 0x7c, 0x82, 0x3e,
  0xfd, 0xb4, 0x5f, 0xbe, 0x70, 0x22, 0x34, 0x3d, 0x3d, 0xac, 0xc1, 0x3e,
  0xef, 0xb3, 0x97, 0xbe, 0x16, 0x22, 0x76, 0xbe, 0x5b, 0x2d, 0x6c, 0xbd,
  0x0e, 0xd3, 0xc1, 0x3e, 0xdf, 0x6a, 0x9a, 0xbe, 0xe4, 0x50, 0x4a, 0xbe,
  0xfb, 0x0c, 0x1c, 0x3e, 0x3c, 0x05, 0x8b, 0xbd, 0xf8, 0x72, 0xdc, 0x3e,
  0xb0, 0x74, 0x92, 0xbe, 0x3d, 0x58, 0xb1, 0x3d, 0x00, 0xd6, 0x4d, 0x3c,
  0x7a, 0x51, 0x38, 0xbe, 0x4d, 0x8a, 0x7c, 0xbe, 0xa6, 0xed, 0x68, 0xbe,
  0x5b, 0x32, 0xef, 0xbd, 0x57, 0x81, 0x78, 0x3c, 0x6e, 0x54, 0xd0, 0xbd,
  0x70, 0x37, 0xd5, 0x3d, 0xfa, 0xac, 0x43, 0x3e, 0x61, 0x13, 0xfc, 0x3e,
  0xdb, 0x9b, 0x6e, 0x3e, 0xd9, 0x69, 0xf9, 0x3c, 0x9f, 0x8b, 0x2c, 0xbf,
  0x12, 0x98, 0x5e, 0xbe, 0x2b, 0x31, 0x13, 0x3e, 0x62, 0x21, 0xf7, 0xbe,
  0x96, 0x08, 0xae, 0x3d, 0x85, 0xa6, 0xba, 0x3d, 0x40, 0xf6, 0xff, 0xff,
  0x44, 0xf6, 0xff, 0xff, 0x0f, 0x00, 0x00, 0x00, 0x4d, 0x4c, 0x49, 0x52,
  0x20, 0x43, 0x6f, 0x6e, 0x76, 0x65, 0x72, 0x74, 0x65, 0x64, 0x2e, 0x00,
  0x01, 0x00, 0x00, 0x00, 0x14, 0x00, 0x00, 0x00, 0x00, 0x00, 0x0e, 0x00,
  0x18, 0x00, 0x14, 0x00, 0x10, 0x00, 0x0c, 0x00, 0x08, 0x00, 0x04, 0x00,
  0x0e, 0x00, 0x00, 0x00, 0x14, 0x00, 0x00, 0x00, 0x1c, 0x00, 0x00, 0x00,
  0x50, 0x01, 0x00, 0x00, 0x54, 0x01, 0x00, 0x00, 0x58, 0x01, 0x00, 0x00,
  0x04, 0x00, 0x00, 0x00, 0x6d, 0x61, 0x69, 0x6e, 0x00, 0x00, 0x00, 0x00,
  0x04, 0x00, 0x00, 0x00, 0xf8, 0x00, 0x00, 0x00, 0xa4, 0x00, 0x00, 0x00,
  0x50, 0x00, 0x00, 0x00, 0x14, 0x00, 0x00, 0x00, 0x00, 0x00, 0x0e, 0x00,
  0x1a, 0x00, 0x14, 0x00, 0x10, 0x00, 0x0c, 0x00, 0x0b, 0x00, 0x04, 0x00,
  0x0e, 0x00, 0x00, 0x00, 0x1c, 0x00, 0x00, 0x00, 0x00, 0x00, 0x00, 0x09,
  0x1c, 0x00, 0x00, 0x00, 0x20, 0x00, 0x00, 0x00, 0x01, 0x00, 0x00, 0x00,
  0x00, 0x00, 0x06, 0x00, 0x08, 0x00, 0x04, 0x00, 0x06, 0x00, 0x00, 0x00,
  0x00, 0x00, 0x80, 0x3f, 0x01, 0x00, 0x00, 0x00, 0x0a, 0x00, 0x00, 0x00,
  0x01, 0x00, 0x00, 0x00, 0x09, 0x00, 0x00, 0x00, 0xbe, 0xff, 0xff, 0xff,
  0x1c, 0x00, 0x00, 0x00, 0x00, 0x00, 0x00, 0x08, 0x1c, 0x00, 0x00, 0x00,
  0x20, 0x00, 0x00, 0x00, 0x0c, 0x00, 0x08, 0x00, 0x00, 0x00, 0x00, 0x00,
  0x00, 0x00, 0x07, 0x00, 0x0c, 0x00, 0x00, 0x00, 0x00, 0x00, 0x00, 0x01,
  0x01, 0x00, 0x00, 0x00, 0x09, 0x00, 0x00, 0x00, 0x03, 0x00, 0x00, 0x00,
  0x08, 0x00, 0x00, 0x00, 0x05, 0x00, 0x00, 0x00, 0x03, 0x00, 0x00, 0x00,
  0x00, 0x00, 0x0e, 0x00, 0x14, 0x00, 0x00, 0x00, 0x10, 0x00, 0x0c, 0x00,
  0x0b, 0x00, 0x04, 0x00, 0x0e, 0x00, 0x00, 0x00, 0x1c, 0x00, 0x00, 0x00,
  0x00, 0x00, 0x00, 0x08, 0x1c, 0x00, 0x00, 0x00, 0x20, 0x00, 0x00, 0x00,
  0x0c, 0x00, 0x08, 0x00, 0x07, 0x00, 0x00, 0x00, 0x00, 0x00, 0x06, 0x00,
  0x0c, 0x00, 0x00, 0x00, 0x00, 0x00, 0x01, 0x01, 0x01, 0x00, 0x00, 0x00,
  0x08, 0x00, 0x00, 0x00, 0x03, 0x00, 0x00, 0x00, 0x07, 0x00, 0x00, 0x00,
  0x06, 0x00, 0x00, 0x00, 0x04, 0x00, 0x00, 0x00, 0x00, 0x00, 0x0e, 0x00,
  0x16, 0x00, 0x00, 0x00, 0x10, 0x00, 0x0c, 0x00, 0x0b, 0x00, 0x04, 0x00,
  0x0e, 0x00, 0x00, 0x00, 0x18, 0x00, 0x00, 0x00, 0x00, 0x00, 0x00, 0x08,
  0x18, 0x00, 0x00, 0x00, 0x1c, 0x00, 0x00, 0x00, 0x00, 0x00, 0x06, 0x00,
  0x08, 0x00, 0x07, 0x00, 0x06, 0x00, 0x00, 0x00, 0x00, 0x00, 0x00, 0x01,
  0x01, 0x00, 0x00, 0x00, 0x07, 0x00, 0x00, 0x00, 0x03, 0x00, 0x00, 0x00,
  0x00, 0x00, 0x00, 0x00, 0x01, 0x00, 0x00, 0x00, 0x02, 0x00, 0x00, 0x00,
  0x01, 0x00, 0x00, 0x00, 0x0a, 0x00, 0x00, 0x00, 0x01, 0x00, 0x00, 0x00,
  0x00, 0x00, 0x00, 0x00, 0x0b, 0x00, 0x00, 0x00, 0xf4, 0x07, 0x00, 0x00,
  0x9c, 0x07, 0x00, 0x00, 0x48, 0x07, 0x00, 0x00, 0x0c, 0x07, 0x00, 0x00,
  0xd0, 0x06, 0x00, 0x00, 0x14, 0x04, 0x00, 0x00, 0x24, 0x02, 0x00, 0x00,
  0x84, 0x01, 0x00, 0x00, 0xe4, 0x00, 0x00, 0x00, 0x60, 0x00, 0x00, 0x00,
  0x04, 0x00, 0x00, 0x00, 0x4e, 0xf8, 0xff, 0xff, 0x00, 0x00, 0x00, 0x01,
  0x14, 0x00, 0x00, 0x00, 0x1c, 0x00, 0x00, 0x00, 0x1c, 0x00, 0x00, 0x00,
  0x0b, 0x00, 0x00, 0x00, 0x34, 0x00, 0x00, 0x00, 0x02, 0x00, 0x00, 0x00,
  0xff, 0xff, 0xff, 0xff, 0x32, 0x00, 0x00, 0x00, 0x38, 0xf8, 0xff, 0xff,
  0x1b, 0x00, 0x00, 0x00, 0x53, 0x74, 0x61, 0x74, 0x65, 0x66, 0x75, 0x6c,
  0x50, 0x61, 0x72, 0x74, 0x69, 0x74, 0x69, 0x6f, 0x6e, 0x65, 0x64, 0x43,
  0x61, 0x6c, 0x6c, 0x5f, 0x31, 0x3a, 0x30, 0x00, 0x02, 0x00, 0x00, 0x00,
  0x01, 0x00, 0x00, 0x00, 0x32, 0x00, 0x00, 0x00, 0xa6, 0xf8, 0xff, 0xff,
  0x00, 0x00, 0x00, 0x01, 0x14, 0x00, 0x00, 0x00, 0x1c, 0x00, 0x00, 0x00,
  0x1c, 0x00, 0x00, 0x00, 0x0a, 0x00, 0x00, 0x00, 0x5c, 0x00, 0x00, 0x00,
  0x02, 0x00, 0x00, 0x00, 0xff, 0xff, 0xff, 0xff, 0x32, 0x00, 0x00, 0x00,
  0x90, 0xf8, 0xff, 0xff, 0x42, 0x00, 0x00, 0x00, 0x73, 0x65, 0x71, 0x75,
  0x65, 0x6e, 0x74, 0x69, 0x61, 0x6c, 0x5f, 0x33, 0x5f, 0x31, 0x2f, 0x64,
  0x65, 0x6e, 0x73, 0x65, 0x5f, 0x31, 0x30, 0x5f, 0x31, 0x2f, 0x4d, 0x61,
  0x74, 0x4d, 0x75, 0x6c, 0x3b, 0x73, 0x65, 0x71, 0x75, 0x65, 0x6e, 0x74,
  0x69, 0x61, 0x6c, 0x5f, 0x33, 0x5f, 0x31, 0x2f, 0x64, 0x65, 0x6e, 0x73,
  0x65, 0x5f, 0x31, 0x30, 0x5f, 0x31, 0x2f, 0x42, 0x69, 0x61, 0x73, 0x41,
  0x64, 0x64, 0x00, 0x00, 0x02, 0x00, 0x00, 0x00, 0x01, 0x00, 0x00, 0x00,
  0x32, 0x00, 0x00, 0x00, 0x26, 0xf9, 0xff, 0xff, 0x00, 0x00, 0x00, 0x01,
  0x14, 0x00, 0x00, 0x00, 0x1c, 0x00, 0x00, 0x00, 0x1c, 0x00, 0x00, 0x00,
  0x09, 0x00, 0x00, 0x00, 0x78, 0x00, 0x00, 0x00, 0x02, 0x00, 0x00, 0x00,
  0xff, 0xff, 0xff, 0xff, 0x20, 0x00, 0x00, 0x00, 0x10, 0xf9, 0xff, 0xff,
  0x5e, 0x00, 0x00, 0x00, 0x73, 0x65, 0x71, 0x75, 0x65, 0x6e, 0x74, 0x69,
  0x61, 0x6c, 0x5f, 0x33, 0x5f, 0x31, 0x2f, 0x64, 0x65, 0x6e, 0x73, 0x65,
  0x5f, 0x39, 0x5f, 0x31, 0x2f, 0x4d, 0x61, 0x74, 0x4d, 0x75, 0x6c, 0x3b,
  0x73, 0x65, 0x71, 0x75, 0x65, 0x6e, 0x74, 0x69, 0x61, 0x6c, 0x5f, 0x33,
  0x5f, 0x31, 0x2f, 0x64, 0x65, 0x6e, 0x73, 0x65, 0x5f, 0x39, 0x5f, 0x31,
  0x2f, 0x52, 0x65, 0x6c, 0x75, 0x3b, 0x73, 0x65, 0x71, 0x75, 0x65, 0x6e,
  0x74, 0x69, 0x61, 0x6c, 0x5f, 0x33, 0x5f, 0x31, 0x2f, 0x64, 0x65, 0x6e,
  0x73, 0x65, 0x5f, 0x39, 0x5f, 0x31, 0x2f, 0x42, 0x69, 0x61, 0x73, 0x41,
  0x64, 0x64, 0x00, 0x00, 0x02, 0x00, 0x00, 0x00, 0x01, 0x00, 0x00, 0x00,
  0x20, 0x00, 0x00, 0x00, 0xc2, 0xf9, 0xff, 0xff, 0x00, 0x00, 0x00, 0x01,
  0x14, 0x00, 0x00, 0x00, 0x1c, 0x00, 0x00, 0x00, 0x1c, 0x00, 0x00, 0x00,
  0x08, 0x00, 0x00, 0x00, 0x78, 0x00, 0x00, 0x00, 0x02, 0x00, 0x00, 0x00,
  0xff, 0xff, 0xff, 0xff, 0x20, 0x00, 0x00, 0x00, 0xac, 0xf9, 0xff, 0xff,
  0x5e, 0x00, 0x00, 0x00, 0x73, 0x65, 0x71, 0x75, 0x65, 0x6e, 0x74, 0x69,
  0x61, 0x6c, 0x5f, 0x33, 0x5f, 0x31, 0x2f, 0x64, 0x65, 0x6e, 0x73, 0x65,
  0x5f, 0x38, 0x5f, 0x31, 0x2f, 0x4d, 0x61, 0x74, 0x4d, 0x75, 0x6c, 0x3b,
  0x73, 0x65, 0x71, 0x75, 0x65, 0x6e, 0x74, 0x69, 0x61, 0x6c, 0x5f, 0x33,
  0x5f, 0x31, 0x2f, 0x64, 0x65, 0x6e, 0x73, 0x65, 0x5f, 0x38, 0x5f, 0x31,
  0x2f, 0x52, 0x65, 0x6c, 0x75, 0x3b, 0x73, 0x65, 0x71, 0x75, 0x65, 0x6e,
  0x74, 0x69, 0x61, 0x6c, 0x5f, 0x33, 0x5f, 0x31, 0x2f, 0x64, 0x65, 0x6e,
  0x73, 0x65, 0x5f, 0x38, 0x5f, 0x31, 0x2f, 0x42, 0x69, 0x61, 0x73, 0x41,
  0x64, 0x64, 0x00, 0x00, 0x02, 0x00, 0x00, 0x00, 0x01, 0x00, 0x00, 0x00,
  0x20, 0x00, 0x00, 0x00, 0x2a, 0xfe, 0xff, 0xff, 0x00, 0x00, 0x00, 0x01,
  0x14, 0x00, 0x00, 0x00, 0xa4, 0x01, 0x00, 0x00, 0x07, 0x00, 0x00, 0x00,
  0x00, 0x00, 0x00, 0x09, 0xb0, 0x01, 0x00, 0x00, 0x14, 0xfe, 0xff, 0xff,
  0x08, 0x00, 0x00, 0x00, 0x08, 0x01, 0x00, 0x00, 0x20, 0x00, 0x00, 0x00,
  0x00, 0x00, 0x00, 0x00, 0x00, 0x00, 0x00, 0x00, 0x00, 0x00, 0x00, 0x00,
  0x00, 0x00, 0x00, 0x00, 0x00, 0x00, 0x00, 0x00, 0x00, 0x00, 0x00, 0x00,
  0x00, 0x00, 0x00, 0x00, 0x00, 0x00, 0x00, 0x00, 0x00, 0x00, 0x00, 0x00,
  0x00, 0x00, 0x00, 0x00, 0x00, 0x00, 0x00, 0x00, 0x00, 0x00, 0x00, 0x00,
  0x00, 0x00, 0x00, 0x00, 0x00, 0x00, 0x00, 0x00, 0x00, 0x00, 0x00, 0x00,
  0x00, 0x00, 0x00, 0x00, 0x00, 0x00, 0x00, 0x00, 0x00, 0x00, 0x00, 0x00,
  0x00, 0x00, 0x00, 0x00, 0x00, 0x00, 0x00, 0x00, 0x00, 0x00, 0x00, 0x00,
  0x00, 0x00, 0x00, 0x00, 0x00, 0x00, 0x00, 0x00, 0x00, 0x00, 0x00, 0x00,
  0x00, 0x00, 0x00, 0x00, 0x00, 0x00, 0x00, 0x00, 0x00, 0x00, 0x00, 0x00,
  0x00, 0x00, 0x00, 0x00, 0x00, 0x00, 0x00, 0x00, 0x00, 0x00, 0x00, 0x00,
  0x00, 0x00, 0x00, 0x00, 0x00, 0x00, 0x00, 0x00, 0x00, 0x00, 0x00, 0x00,
  0x00, 0x00, 0x00, 0x00, 0x00, 0x00, 0x00, 0x00, 0x00, 0x00, 0x00, 0x00,
  0x00, 0x00, 0x00, 0x00, 0x00, 0x00, 0x00, 0x00, 0x00, 0x00, 0x00, 0x00,
  0x00, 0x00, 0x00, 0x00, 0x00, 0x00, 0x00, 0x00, 0x00, 0x00, 0x00, 0x00,
  0x00, 0x00, 0x00, 0x00, 0x00, 0x00, 0x00, 0x00, 0x00, 0x00, 0x00, 0x00,
  0x00, 0x00, 0x00, 0x00, 0x00, 0x00, 0x00, 0x00, 0x00, 0x00, 0x00, 0x00,
  0x00, 0x00, 0x00, 0x00, 0x00, 0x00, 0x00, 0x00, 0x00, 0x00, 0x00, 0x00,
  0x00, 0x00, 0x00, 0x00, 0x00, 0x00, 0x00, 0x00, 0x00, 0x00, 0x00, 0x00,
  0x00, 0x00, 0x00, 0x00, 0x00, 0x00, 0x00, 0x00, 0x00, 0x00, 0x00, 0x00,
  0x00, 0x00, 0x00, 0x00, 0x00, 0x00, 0x00, 0x00, 0x00, 0x00, 0x00, 0x00,
  0x00, 0x00, 0x00, 0x00, 0x00, 0x00, 0x00, 0x00, 0x00, 0x00, 0x00, 0x00,
  0x00, 0x00, 0x00, 0x00, 0x20, 0x00, 0x00, 0x00, 0xc2, 0x42, 0x1b, 0x3b,
  0x6f, 0x2e, 0x25, 0x3b, 0xc4, 0x96, 0x3a, 0x3b, 0x19, 0xb8, 0x14, 0x3b,
  0x89, 0xe5, 0x18, 0x3b, 0xfb, 0x94, 0x2c, 0x3b, 0x9c, 0xc9, 0x1a, 0x3b,
  0x49, 0x83, 0x1d, 0x3b, 0x97, 0x84, 0x17, 0x3b, 0xcf, 0x2c, 0x1b, 0x3b,
  0xb9, 0x79, 0x94, 0x3b, 0x6b, 0x1d, 0x12, 0x3b, 0x67, 0x09, 0x21, 0x3b,
  0x89, 0xab, 0x2b, 0x3b, 0x9a, 0x0b, 0x11, 0x3b, 0x1e, 0xf9, 0x20, 0x3b,
  0xc7, 0x4c, 0x9a, 0x3b, 0xd7, 0x18, 0x1e, 0x3b, 0x13, 0x2e, 0x19, 0x3b,
  0xe2, 0xe0, 0x67, 0x3b, 0xb8, 0xeb, 0x3e, 0x3b, 0xd5, 0x09, 0x1d, 0x3b,
  0xf5, 0x80, 0x2c, 0x3b, 0x08, 0x3f, 0x4b, 0x3b, 0x58, 0x22, 0x1d, 0x3b,
  0x51, 0xcf, 0x44, 0x3b, 0xf1, 0xd5, 0x18, 0x3b, 0x2f, 0x18, 0x23, 0x3b,
  0x3b, 0x49, 0x35, 0x3b, 0x29, 0x67, 0x46, 0x3b, 0xf4, 0x97, 0x11, 0x3b,
  0x11, 0x09, 0x1c, 0x3b, 0x12, 0x00, 0x00, 0x00, 0x74, 0x66, 0x6c, 0x2e,
  0x70, 0x73, 0x65, 0x75, 0x64, 0x6f, 0x5f, 0x71, 0x63, 0x6f, 0x6e, 0x73,
  0x74, 0x31, 0x00, 0x00, 0x02, 0x00, 0x00, 0x00, 0x20, 0x00, 0x00, 0x00,
  0x20, 0x00, 0x00, 0x00, 0x00, 0x00, 0x16, 0x00, 0x1c, 0x00, 0x18, 0x00,
  0x17, 0x00, 0x10, 0x00, 0x0c, 0x00, 0x08, 0x00, 0x00, 0x00, 0x00, 0x00,
  0x00, 0x00, 0x07, 0x00, 0x16, 0x00, 0x00, 0x00, 0x00, 0x00, 0x00, 0x01,
  0x20, 0x00, 0x00, 0x00, 0x88, 0x02, 0x00, 0x00, 0x06, 0x00, 0x00, 0x00,
  0x00, 0x00, 0x00, 0x09, 0x94, 0x02, 0x00, 0x00, 0x0c, 0x00, 0x0c, 0x00,
  0x00, 0x00, 0x00, 0x00, 0x08, 0x00, 0x04, 0x00, 0x0c, 0x00, 0x00, 0x00,
  0x08, 0x00, 0x00, 0x00, 0x98, 0x01, 0x00, 0x00, 0x32, 0x00, 0x00, 0x00,
  0x00, 0x00, 0x00, 0x00, 0x00, 0x00, 0x00, 0x00, 0x00, 0x00, 0x00, 0x00,
  0x00, 0x00, 0x00, 0x00, 0x00, 0x00, 0x00, 0x00, 0x00, 0x00, 0x00, 0x00,
  0x00, 0x00, 0x00, 0x00, 0x00, 0x00, 0x00, 0x00, 0x00, 0x00, 0x00, 0x00,
  0x00, 0x00, 0x00, 0x00, 0x00, 0x00, 0x00, 0x00, 0x00, 0x00, 0x00, 0x00,
  0x00, 0x00, 0x00, 0x00, 0x00, 0x00, 0x00, 0x00, 0x00, 0x00, 0x00, 0x00,
  0x00, 0x00, 0x00, 0x00, 0x00, 0x00, 0x00, 0x00, 0x00, 0x00, 0x00, 0x00,
  0x00, 0x00, 0x00, 0x00, 0x00, 0x00, 0x00, 0x00, 0x00, 0x00, 0x00, 0x00,
  0x00, 0x00, 0x00, 0x00, 0x00, 0x00, 0x00, 0x00, 0x00, 0x00, 0x00, 0x00,
  0x00, 0x00, 0x00, 0x00, 0x00, 0x00, 0x00, 0x00, 0x00, 0x00, 0x00, 0x00,
  0x00, 0x00, 0x00, 0x00, 0x00, 0x00, 0x00, 0x00, 0x00, 0x00, 0x00, 0x00,
  0x00, 0x00, 0x00, 0x00, 0x00, 0x00, 0x00, 0x00, 0x00, 0x00, 0x00, 0x00,
  0x00, 0x00, 0x00, 0x00, 0x00, 0x00, 0x00, 0x00, 0x00, 0x00, 0x00, 0x00,
  0x00, 0x00, 0x00, 0x00, 0x00, 0x00, 0x00, 0x00, 0x00, 0x00, 0x00, 0x00,
  0x00, 0x00, 0x00, 0x00, 0x00, 0x00, 0x00, 0x00, 0x00, 0x00, 0x00, 0x00,
  0x00, 0x00, 0x00, 0x00, 0x00, 0x00, 0x00, 0x00, 0x00, 0x00, 0x00, 0x00,
  0x00, 0x00, 0x00, 0x00, 0x00, 0x00, 0x00, 0x00, 0x00, 0x00, 0x00, 0x00,
  0x00, 0x00, 0x00, 0x00, 0x00, 0x00, 0x00, 0x00, 0x00, 0x00, 0x00, 0x00,
  0x00, 0x00, 0x00, 0x00, 0x00, 0x00, 0x00, 0x00, 0x00, 0x00, 0x00, 0x00,
  0x00, 0x00, 0x00, 0x00, 0x00, 0x00, 0x00, 0x00, 0x00, 0x00, 0x00, 0x00,
  0x00, 0x00, 0x00, 0x00, 0x00, 0x00, 0x00, 0x00, 0x00, 0x00, 0x00, 0x00,
  0x00, 0x00, 0x00, 0x00, 0x00, 0x00, 0x00, 0x00, 0x00, 0x00, 0x00, 0x00,
  0x00, 0x00, 0x00, 0x00, 0x00, 0x00, 0x00, 0x00, 0x00, 0x00, 0x00, 0x00,
  0x00, 0x00, 0x00, 0x00, 0x00, 0x00, 0x00, 0x00, 0x00, 0x00, 0x00, 0x00,
  0x00, 0x00, 0x00, 0x00, 0x00, 0x00, 0x00, 0x00, 0x00, 0x00, 0x00, 0x00,
  0x00, 0x00, 0x00, 0x00, 0x00, 0x00, 0x00, 0x00, 0x00, 0x00, 0x00, 0x00,
  0x00, 0x00, 0x00, 0x00, 0x00, 0x00, 0x00, 0x00, 0x00, 0x00, 0x00, 0x00,
  0x00, 0x00, 0x00, 0x00, 0x00, 0x00, 0x00, 0x00, 0x00, 0x00, 0x00, 0x00,
  0x00, 0x00, 0x00, 0x00, 0x00, 0x00, 0x00, 0x00, 0x00, 0x00, 0x00, 0x00,
  0x00, 0x00, 0x00, 0x00, 0x00, 0x00, 0x00, 0x00, 0x00, 0x00, 0x00, 0x00,
  0x00, 0x00, 0x00, 0x00, 0x00, 0x00, 0x00, 0x00, 0x00, 0x00, 0x00, 0x00,
  0x00, 0x00, 0x00, 0x00, 0x00, 0x00, 0x00, 0x00, 0x00, 0x00, 0x00, 0x00,
  0x00, 0x00, 0x00, 0x00, 0x00, 0x00, 0x00, 0x00, 0x00, 0x00, 0x00, 0x00,
  0x00, 0x00, 0x00, 0x00, 0x00, 0x00, 0x00, 0x00, 0x00, 0x00, 0x00, 0x00,
  0x00, 0x00, 0x00, 0x00, 0x32, 0x00, 0x00, 0x00, 0x5f, 0x56, 0x19, 0x3b,
  0x00, 0x68, 0x22, 0x3c, 0x03, 0x27, 0x13, 0x3b, 0xdf, 0xf3, 0x03, 0x3b,
  0xdc, 0x04, 0x24, 0x3b, 0xc8, 0xa8, 0x26, 0x3b, 0x3b, 0x92, 0x04, 0x3b,
  0x10, 0x7b, 0x9b, 0x3b, 0xf1, 0x3c, 0x4a, 0x3b, 0x86, 0x74, 0x37, 0x3b,
  0xf3, 0x91, 0x56, 0x3b, 0xcd, 0xd3, 0x9b, 0x3b, 0x9e, 0xff, 0x2e, 0x3c,
  0xf2, 0x01, 0xcb, 0x3b, 0x8f, 0xc5, 0xef, 0x3b, 0x58, 0x31, 0xca, 0x3b,
  0x83, 0x39, 0x3e, 0x3c, 0xd0, 0x1e, 0xb6, 0x3b, 0x74, 0xba, 0xf1, 0x3b,
  0xd3, 0x0e, 0x86, 0x3b, 0xec, 0xe1, 0x8d, 0x3b, 0xd3, 0xe1, 0xa7, 0x3b,
  0xc1, 0x3f, 0x9f, 0x3b, 0x96, 0x54, 0x73, 0x3c, 0x9d, 0xd8, 0x9f, 0x3c,
  0x2e, 0x27, 0xa7, 0x3c, 0xc9, 0x03, 0xa4, 0x3b, 0x49, 0xc9, 0x07, 0x3c,
  0xfb, 0xb1, 0xe2, 0x3b, 0x10, 0x25, 0x8b, 0x3b, 0xcd, 0x8b, 0x9b, 0x3b,
  0xd4, 0x9e, 0xf1, 0x3c, 0xf4, 0x0b, 0x70, 0x3b, 0xf9, 0x0b, 0x63, 0x3c,
  0xe2, 0xa0, 0xc4, 0x3c, 0x97, 0xca, 0x4c, 0x3c, 0xd4, 0x1e, 0x00, 0x3d,
  0x6a, 0xd3, 0x2b, 0x3c, 0x16, 0xc4, 0xc8, 0x3b, 0xff, 0x76, 0xbf, 0x3c,
  0xe4, 0xa8, 0xb5, 0x3c, 0x7a, 0x19, 0xe3, 0x3c, 0xb7, 0x6a, 0x81, 0x3c,
  0x09, 0x54, 0x39, 0x3c, 0xd1, 0xf6, 0x10, 0x3c, 0x73, 0xcb, 0x80, 0x3c,
  0x41, 0x93, 0x05, 0x3c, 0xae, 0x14, 0x45, 0x3c, 0x78, 0xd5, 0xa9, 0x3c,
  0xd6, 0x17, 0x23, 0x3c, 0x11, 0x00, 0x00, 0x00, 0x74, 0x66, 0x6c, 0x2e,
  0x70, 0x73, 0x65, 0x75, 0x64, 0x6f, 0x5f, 0x71, 0x63, 0x6f, 0x6e, 0x73,
  0x74, 0x00, 0x00, 0x00, 0x02, 0x00, 0x00, 0x00, 0x32, 0x00, 0x00, 0x00,
  0x20, 0x00, 0x00, 0x00, 0x56, 0xff, 0xff, 0xff, 0x00, 0x00, 0x00, 0x01,
  0x10, 0x00, 0x00, 0x00, 0x10, 0x00, 0x00, 0x00, 0x05, 0x00, 0x00, 0x00,
  0x1c, 0x00, 0x00, 0x00, 0xdc, 0xfe, 0xff, 0xff, 0x0f, 0x00, 0x00, 0x00,
  0x61, 0x72, 0x69, 0x74, 0x68, 0x2e, 0x63, 0x6f, 0x6e, 0x73, 0x74, 0x61,
  0x6e, 0x74, 0x33, 0x00, 0x01, 0x00, 0x00, 0x00, 0x20, 0x00, 0x00, 0x00,
  0x8e, 0xff, 0xff, 0xff, 0x00, 0x00, 0x00, 0x01, 0x10, 0x00, 0x00, 0x00,
  0x10, 0x00, 0x00, 0x00, 0x04, 0x00, 0x00, 0x00, 0x1c, 0x00, 0x00, 0x00,
  0x14, 0xff, 0xff, 0xff, 0x0f, 0x00, 0x00, 0x00, 0x61, 0x72, 0x69, 0x74,
  0x68, 0x2e, 0x63, 0x6f, 0x6e, 0x73, 0x74, 0x61, 0x6e, 0x74, 0x32, 0x00,
  0x01, 0x00, 0x00, 0x00, 0x32, 0x00, 0x00, 0x00, 0xc6, 0xff, 0xff, 0xff,
  0x00, 0x00, 0x00, 0x01, 0x10, 0x00, 0x00, 0x00, 0x10, 0x00, 0x00, 0x00,
  0x03, 0x00, 0x00, 0x00, 0x1c, 0x00, 0x00, 0x00, 0x4c, 0xff, 0xff, 0xff,
  0x0f, 0x00, 0x00, 0x00, 0x61, 0x72, 0x69, 0x74, 0x68, 0x2e, 0x63, 0x6f,
  0x6e, 0x73, 0x74, 0x61, 0x6e, 0x74, 0x31, 0x00, 0x01, 0x00, 0x00, 0x00,
  0x20, 0x00, 0x00, 0x00, 0x00, 0x00, 0x16, 0x00, 0x18, 0x00, 0x14, 0x00,
  0x00, 0x00, 0x10, 0x00, 0x0c, 0x00, 0x08, 0x00, 0x00, 0x00, 0x00, 0x00,
  0x00, 0x00, 0x07, 0x00, 0x16, 0x00, 0x00, 0x00, 0x00, 0x00, 0x00, 0x01,
  0x10, 0x00, 0x00, 0x00, 0x10, 0x00, 0x00, 0x00, 0x02, 0x00, 0x00, 0x00,
  0x1c, 0x00, 0x00, 0x00, 0x9c, 0xff, 0xff, 0xff, 0x0e, 0x00, 0x00, 0x00,
  0x61, 0x72, 0x69, 0x74, 0x68, 0x2e, 0x63, 0x6f, 0x6e, 0x73, 0x74, 0x61,
  0x6e, 0x74, 0x00, 0x00, 0x02, 0x00, 0x00, 0x00, 0x20, 0x00, 0x00, 0x00,
  0x03, 0x00, 0x00, 0x00, 0x00, 0x00, 0x16, 0x00, 0x1c, 0x00, 0x18, 0x00,
  0x00, 0x00, 0x14, 0x00, 0x10, 0x00, 0x0c, 0x00, 0x00, 0x00, 0x00, 0x00,
  0x08, 0x00, 0x07, 0x00, 0x16, 0x00, 0x00, 0x00, 0x00, 0x00, 0x00, 0x01,
  0x14, 0x00, 0x00, 0x00, 0x20, 0x00, 0x00, 0x00, 0x20, 0x00, 0x00, 0x00,
  0x01, 0x00, 0x00, 0x00, 0x40, 0x00, 0x00, 0x00, 0x02, 0x00, 0x00, 0x00,
  0xff, 0xff, 0xff, 0xff, 0x03, 0x00, 0x00, 0x00, 0x04, 0x00, 0x04, 0x00,
  0x04, 0x00, 0x00, 0x00, 0x21, 0x00, 0x00, 0x00, 0x73, 0x65, 0x72, 0x76,
  0x69, 0x6e, 0x67, 0x5f, 0x64, 0x65, 0x66, 0x61, 0x75, 0x6c, 0x74, 0x5f,
  0x6b, 0x65, 0x72, 0x61, 0x73, 0x5f, 0x74, 0x65, 0x6e, 0x73, 0x6f, 0x72,
  0x5f, 0x31, 0x31, 0x3a, 0x30, 0x00, 0x00, 0x00, 0x02, 0x00, 0x00, 0x00,
  0x01, 0x00, 0x00, 0x00, 0x03, 0x00, 0x00, 0x00, 0x02, 0x00, 0x00, 0x00,
  0x2c, 0x00, 0x00, 0x00, 0x10, 0x00, 0x00, 0x00, 0x0c, 0x00, 0x0c, 0x00,
  0x0b, 0x00, 0x00, 0x00, 0x00, 0x00, 0x04, 0x00, 0x0c, 0x00, 0x00, 0x00,
  0x19, 0x00, 0x00, 0x00, 0x00, 0x00, 0x00, 0x19, 0x0c, 0x00, 0x10, 0x00,
  0x0f, 0x00, 0x00, 0x00, 0x08, 0x00, 0x04, 0x00, 0x0c, 0x00, 0x00, 0x00,
  0x09, 0x00, 0x00, 0x00, 0x0c, 0x00, 0x00, 0x00, 0x00, 0x00, 0x00, 0x09
};

const unsigned int model_tflite_len = 6648;
